{
  "tokens_generated": {
    "\u0000": 0,
    "\u0001": 1,
    "\u0002": 2,
    "\u0003": 3,
    "\u0004": 4,
    "\u0005": 5,
    "\u0006": 6,
    "\u0007": 7,
    "\b": 8,
    "\t": 9,
    "\n": 10,
    "\u000b": 11,
    "\f": 12,
    "\r": 13,
    "\u000e": 14,
    "\u000f": 15,
    "\u0010": 16,
    "\u0011": 17,
    "\u0012": 18,
    "\u0013": 19,
    "\u0014": 20,
    "\u0015": 21,
    "\u0016": 22,
    "\u0017": 23,
    "\u0018": 24,
    "\u0019": 25,
    "\u001a": 26,
    "\u001b": 27,
    "\u001c": 28,
    "\u001d": 29,
    "\u001e": 30,
    "\u001f": 31,
    " ": 32,
    "!": 33,
    "\"": 34,
    "#": 35,
    "$": 36,
    "%": 37,
    "&": 38,
    "'": 39,
    "(": 40,
    ")": 41,
    "*": 42,
    "+": 43,
    ",": 44,
    "-": 45,
    ".": 46,
    "/": 47,
    "0": 48,
    "1": 49,
    "2": 50,
    "3": 51,
    "4": 52,
    "5": 53,
    "6": 54,
    "7": 55,
    "8": 56,
    "9": 57,
    ":": 58,
    ";": 59,
    "<": 60,
    "=": 61,
    ">": 62,
    "?": 63,
    "@": 64,
    "A": 65,
    "B": 66,
    "C": 67,
    "D": 68,
    "E": 69,
    "F": 70,
    "G": 71,
    "H": 72,
    "I": 73,
    "J": 74,
    "K": 75,
    "L": 76,
    "M": 77,
    "N": 78,
    "O": 79,
    "P": 80,
    "Q": 81,
    "R": 82,
    "S": 83,
    "T": 84,
    "U": 85,
    "V": 86,
    "W": 87,
    "X": 88,
    "Y": 89,
    "Z": 90,
    "[": 91,
    "\\": 92,
    "]": 93,
    "^": 94,
    "_": 95,
    "`": 96,
    "a": 97,
    "b": 98,
    "c": 99,
    "d": 100,
    "e": 101,
    "f": 102,
    "g": 103,
    "h": 104,
    "i": 105,
    "j": 106,
    "k": 107,
    "l": 108,
    "m": 109,
    "n": 110,
    "o": 111,
    "p": 112,
    "q": 113,
    "r": 114,
    "s": 115,
    "t": 116,
    "u": 117,
    "v": 118,
    "w": 119,
    "x": 120,
    "y": 121,
    "z": 122,
    "{": 123,
    "|": 124,
    "}": 125,
    "~": 126,
    "\u007f": 127,
    "\u0080": 128,
    "\u0081": 129,
    "\u0082": 130,
    "\u0083": 131,
    "\u0084": 132,
    "\u0085": 133,
    "\u0086": 134,
    "\u0087": 135,
    "\u0088": 136,
    "\u0089": 137,
    "\u008a": 138,
    "\u008b": 139,
    "\u008c": 140,
    "\u008d": 141,
    "\u008e": 142,
    "\u008f": 143,
    "\u0090": 144,
    "\u0091": 145,
    "\u0092": 146,
    "\u0093": 147,
    "\u0094": 148,
    "\u0095": 149,
    "\u0096": 150,
    "\u0097": 151,
    "\u0098": 152,
    "\u0099": 153,
    "\u009a": 154,
    "\u009b": 155,
    "\u009c": 156,
    "\u009d": 157,
    "\u009e": 158,
    "\u009f": 159,
    "\u00a0": 160,
    "\u00a1": 161,
    "\u00a2": 162,
    "\u00a3": 163,
    "\u00a4": 164,
    "\u00a5": 165,
    "\u00a6": 166,
    "\u00a7": 167,
    "\u00a8": 168,
    "\u00a9": 169,
    "\u00aa": 170,
    "\u00ab": 171,
    "\u00ac": 172,
    "\u00ad": 173,
    "\u00ae": 174,
    "\u00af": 175,
    "\u00b0": 176,
    "\u00b1": 177,
    "\u00b2": 178,
    "\u00b3": 179,
    "\u00b4": 180,
    "\u00b5": 181,
    "\u00b6": 182,
    "\u00b7": 183,
    "\u00b8": 184,
    "\u00b9": 185,
    "\u00ba": 186,
    "\u00bb": 187,
    "\u00bc": 188,
    "\u00bd": 189,
    "\u00be": 190,
    "\u00bf": 191,
    "\u00c0": 192,
    "\u00c1": 193,
    "\u00c2": 194,
    "\u00c3": 195,
    "\u00c4": 196,
    "\u00c5": 197,
    "\u00c6": 198,
    "\u00c7": 199,
    "\u00c8": 200,
    "\u00c9": 201,
    "\u00ca": 202,
    "\u00cb": 203,
    "\u00cc": 204,
    "\u00cd": 205,
    "\u00ce": 206,
    "\u00cf": 207,
    "\u00d0": 208,
    "\u00d1": 209,
    "\u00d2": 210,
    "\u00d3": 211,
    "\u00d4": 212,
    "\u00d5": 213,
    "\u00d6": 214,
    "\u00d7": 215,
    "\u00d8": 216,
    "\u00d9": 217,
    "\u00da": 218,
    "\u00db": 219,
    "\u00dc": 220,
    "\u00dd": 221,
    "\u00de": 222,
    "\u00df": 223,
    "\u00e0": 224,
    "\u00e1": 225,
    "\u00e2": 226,
    "\u00e3": 227,
    "\u00e4": 228,
    "\u00e5": 229,
    "\u00e6": 230,
    "\u00e7": 231,
    "\u00e8": 232,
    "\u00e9": 233,
    "\u00ea": 234,
    "\u00eb": 235,
    "\u00ec": 236,
    "\u00ed": 237,
    "\u00ee": 238,
    "\u00ef": 239,
    "\u00f0": 240,
    "\u00f1": 241,
    "\u00f2": 242,
    "\u00f3": 243,
    "\u00f4": 244,
    "\u00f5": 245,
    "\u00f6": 246,
    "\u00f7": 247,
    "\u00f8": 248,
    "\u00f9": 249,
    "\u00fa": 250,
    "\u00fb": 251,
    "\u00fc": 252,
    "\u00fd": 253,
    "\u00fe": 254,
    "e ": 256,
    "s ": 257,
    "he ": 258,
    "in": 259,
    "at": 260,
    "er": 261,
    "on": 262,
    "re": 263,
    "The ": 264,
    "en": 265,
    "st": 266,
    "an": 267,
    "s.": 268,
    "or": 269,
    "al": 270,
    "d ": 271,
    "ar": 272,
    "es ": 273,
    "it": 274,
    "ro": 275,
    "ic": 276,
    "y ": 277,
    "ed ": 278,
    "ac": 279,
    " t": 280,
    "ion": 281,
    "el": 282,
    "co": 283,
    "le": 284,
    "ou": 285,
    "ch": 286,
    "ent": 287,
    "I ": 288,
    "th": 289,
    "de": 290,
    "She ": 291,
    "ing": 292,
    "He ": 293,
    "se": 294,
    "ci": 295,
    "con": 296,
    "ates ": 297,
    "ne": 298,
    "al ": 299,
    "ct": 300,
    "y.": 301,
    "for": 302,
    "il": 303,
    "di": 304,
    "ig": 305,
    "lo": 306,
    " s": 307,
    " the ": 308,
    "ver": 309,
    "es.": 310,
    "e.": 311,
    "ation": 312,
    "pro": 313,
    "im": 314,
    "op": 315,
    "un": 316,
    "ad": 317,
    "ur": 318,
    "ul": 319,
    "em": 320,
    "ain": 321,
    "the ": 322,
    "ap": 323,
    "pl": 324,
    "pre": 325,
    "om": 326,
    "of": 327,
    "sh": 328,
    "iv": 329,
    "ing ": 330,
    "a ": 331,
    "to": 332,
    "ss": 333,
    "ter": 334,
    "ol": 335,
    "tr": 336,
    "if": 337,
    "mo": 338,
    "qu": 339,
    "est": 340,
    "ut": 341,
    "be": 342,
    "com": 343,
    "ow": 344,
    "ex": 345,
    "h ": 346,
    "as ": 347,
    "ect": 348,
    "ed": 349,
    "ab": 350,
    "per": 351,
    "sp": 352,
    "and ": 353,
    "is ": 354,
    "ss ": 355,
    "um": 356,
    "t ": 357,
    "igh": 358,
    "am": 359,
    "ce": 360,
    "vel": 361,
    "ate ": 362,
    "ag": 363,
    "er ": 364,
    "for ": 365,
    "su": 366,
    "ri": 367,
    "cl": 368,
    "po": 369,
    "ie": 370,
    "ous": 371,
    "lear": 372,
    "enc": 373,
    "of ": 374,
    "ly": 375,
    "act": 376,
    "cons": 377,
    "on ": 378,
    "ir": 379,
    "ang": 380,
    "wit": 381,
    "ant": 382,
    "fac": 383,
    "devel": 384,
    "develop": 385,
    "ug": 386,
    "The c": 387,
    "ic ": 388,
    "learn": 389,
    "k ": 390,
    "ies.": 391,
    "ing.": 392,
    "The m": 393,
    "et": 394,
    "stu": 395,
    "arch": 396,
    "ay": 397,
    "ight": 398,
    "art": 399,
    "form": 400,
    "ist": 401,
    "consci": 402,
    "conscious": 403,
    "consciousne": 404,
    "preci": 405,
    "ilit": 406,
    "ve ": 407,
    "ak": 408,
    "end": 409,
    "te": 410,
    "iz": 411,
    "ff": 412,
    " th": 413,
    "in ": 414,
    "develops ": 415,
    "and": 416,
    "av": 417,
    "all": 418,
    "wor": 419,
    "ate": 420,
    "sit": 421,
    "roug": 422,
    "val": 423,
    "to ": 424,
    "ation.": 425,
    "log": 426,
    "as": 427,
    "id": 428,
    "tain": 429,
    "ical ": 430,
    "oo": 431,
    "ell": 432,
    "pr": 433,
    "oun": 434,
    "ast": 435,
    "appreci": 436,
    "oc": 437,
    "in the ": 438,
    "learned ": 439,
    "ive ": 440,
    "pe": 441,
    "ach": 442,
    "ord": 443,
    "ult": 444,
    "reat": 445,
    "appreciate ": 446,
    "I learned ": 447,
    "no": 448,
    "me": 449,
    "ure": 450,
    "gr": 451,
    "studi": 452,
    "ent ": 453,
    "I appreciate ": 454,
    "The p": 455,
    "adv": 456,
    "wh": 457,
    "now": 458,
    "comp": 459,
    "sy": 460,
    "ve": 461,
    "search": 462,
    "valu": 463,
    "inv": 464,
    "He develops ": 465,
    "fro": 466,
    "und": 467,
    "ore": 468,
    "throug": 469,
    "m ": 470,
    "ity ": 471,
    "le ": 472,
    "He re": 473,
    "consciousness ": 474,
    "li": 475,
    "ear": 476,
    "our": 477,
    "bel": 478,
    "str": 479,
    "low": 480,
    "ordin": 481,
    "facilit": 482,
    "mot": 483,
    "with ": 484,
    "He studi": 485,
    "o ": 486,
    "has ": 487,
    "er.": 488,
    "ly ": 489,
    "I appreciate the ": 490,
    "She adv": 491,
    "She advoc": 492,
    "She advocates ": 493,
    "He inv": 494,
    "He invest": 495,
    "He investig": 496,
    "He investigates ": 497,
    "the": 498,
    "over": 499,
    "ort": 500,
    "chang": 501,
    "br": 502,
    "He studies ": 503,
    "The b": 504,
    "an ": 505,
    "He research": 506,
    "He researches ": 507,
    "She advocates for ": 508,
    "She co": 509,
    "She facilit": 510,
    "She facilitates ": 511,
    "is": 512,
    "us": 513,
    "row": 514,
    "belie": 515,
    "dis": 516,
    "ard": 517,
    "ph": 518,
    "wat": 519,
    "ation ": 520,
    "anc": 521,
    "ion ": 522,
    "She coordin": 523,
    "She coordinates ": 524,
    "eco": 525,
    "She pro": 526,
    "She promot": 527,
    "She promotes ": 528,
    "he": 529,
    "up": 530,
    "work": 531,
    "ild": 532,
    "ide": 533,
    "part": 534,
    "ine": 535,
    "ath": 536,
    "col": 537,
    "ence ": 538,
    "ed a ": 539,
    "um ": 540,
    "The f": 541,
    "ions.": 542,
    "ion.": 543,
    "I valu": 544,
    "I value ": 545,
    "I belie": 546,
    "I believe ": 547,
    "ill": 548,
    "out": 549,
    "ust": 550,
    "new": 551,
    "are": 552,
    "ass": 553,
    "ans": 554,
    "int": 555,
    "ind": 556,
    "lif": 557,
    "pres": 558,
    "jo": 559,
    "n ": 560,
    "ed the ": 561,
    "ity.": 562,
    "ations.": 563,
    "we": 564,
    "stem": 565,
    "aw": 566,
    "ge": 567,
    "quant": 568,
    "ener": 569,
    "inter": 570,
    "port": 571,
    "comm": 572,
    "war": 573,
    "cel": 574,
    "en ": 575,
    "The s": 576,
    "ary ": 577,
    "The t": 578,
    "ke": 579,
    "see": 580,
    "ple": 581,
    "ment": 582,
    "du": 583,
    "des": 584,
    "ful": 585,
    "ign": 586,
    "nat": 587,
    "ip": 588,
    "conne": 589,
    "connect": 590,
    "aut": 591,
    "was ": 592,
    "ers ": 593,
    "ss.": 594,
    "ics.": 595,
    "econ": 596,
    "econom": 597,
    "with": 598,
    "her": 599,
    "just": 600,
    "ot": 601,
    "ob": 602,
    "res": 603,
    "pract": 604,
    "practic": 605,
    "pt": 606,
    "anci": 607,
    "fre": 608,
    "car": 609,
    "cover": 610,
    "enjo": 611,
    "ever": 612,
    "beaut": 613,
    "at ": 614,
    "erv": 615,
    "ure.": 616,
    "ated ": 617,
    "ents.": 618,
    "ies ": 619,
    "ence.": 620,
    "ther": 621,
    "man": 622,
    "stor": 623,
    "system": 624,
    "ru": 625,
    "fort": 626,
    "ire": 627,
    "loc": 628,
    "cre": 629,
    "ark": 630,
    "clim": 631,
    "da": 632,
    "fin": 633,
    "ace ": 634,
    "cle ": 635,
    "The h": 636,
    "olog": 637,
    "ial ": 638,
    "cy": 639,
    "know": 640,
    "use": 641,
    "right": 642,
    "atter": 643,
    "ject": 644,
    "ffect": 645,
    "hist": 646,
    "histor": 647,
    "fe": 648,
    "sure": 649,
    "gener": 650,
    "org": 651,
    "through": 652,
    "sh ": 653,
    "my ": 654,
    "ountain": 655,
    "cult": 656,
    "ine ": 657,
    "st ": 658,
    "ure ": 659,
    "ery ": 660,
    "se.": 661,
    "lect": 662,
    "able ": 663,
    "ents ": 664,
    "through ": 665,
    "I see": 666,
    "th ": 667,
    "do": 668,
    "af": 669,
    "tw": 670,
    "ev": 671,
    "plan": 672,
    "ble": 673,
    "cent": 674,
    "produ": 675,
    "ef": 676,
    "min": 677,
    "ens": 678,
    "ong": 679,
    "plic": 680,
    "bl": 681,
    "mor": 682,
    "under": 683,
    "bu": 684,
    "exp": 685,
    "tect": 686,
    "organ": 687,
    "ref": 688,
    "play": 689,
    "beautif": 690,
    "beautiful": 691,
    "at the ": 692,
    "it ": 693,
    "age ": 694,
    "a s": 695,
    "eng": 696,
    " te": 697,
    "dg": 698,
    "his ": 699,
    " tr": 700,
    "from ": 701,
    "ides ": 702,
    "life.": 703,
    " sh": 704,
    "ple ": 705,
    "cur": 706,
    "red ": 707,
    "bi": 708,
    "quantum ": 709,
    "hav": 710,
    "from": 711,
    "so": 712,
    "like": 713,
    "ome": 714,
    "od": 715,
    "grow": 716,
    "mov": 717,
    "ish": 718,
    "cer": 719,
    "diff": 720,
    "sm": 721,
    "main": 722,
    "cr": 723,
    "ical": 724,
    "ular": 725,
    "stand": 726,
    "spe": 727,
    "pu": 728,
    "warm": 729,
    "dr": 730,
    "ound": 731,
    "ext": 732,
    "protect": 733,
    "gu": 734,
    "own": 735,
    "tra": 736,
    "reve": 737,
    "sol": 738,
    "ome ": 739,
    "versit": 740,
    "of the ": 741,
    "ly.": 742,
    "mountain": 743,
    "se ": 744,
    "I enjo": 745,
    "I enjoy ": 746,
    "rel": 747,
    "fresh ": 748,
    "mark": 749,
    "ers.": 750,
    "ance ": 751,
    "edr": 752,
    "ecosystem": 753,
    "ative ": 754,
    "I seek ": 755,
    "sac": 756,
    "cycle ": 757,
    "ake": 758,
    "tim": 759,
    "year": 760,
    "ack": 761,
    "ca": 762,
    "any": 763,
    "off": 764,
    "theor": 765,
    "prin": 766,
    "pow": 767,
    "point": 768,
    "side": 769,
    "ren": 770,
    "pur": 771,
    "mon": 772,
    "wr": 773,
    "ual": 774,
    "ely": 775,
    "comple": 776,
    "cess": 777,
    "ame": 778,
    "dist": 779,
    "trans": 780,
    "design": 781,
    "cont": 782,
    "organiz": 783,
    "dom": 784,
    "down": 785,
    "ib": 786,
    "x ": 787,
    "or ": 788,
    "oce": 789,
    "ning ": 790,
    "new ": 791,
    " to ": 792,
    "ous ": 793,
    "commun": 794,
    "every ": 795,
    "ant ": 796,
    " tim": 797,
    "ancient ": 798,
    " sk": 799,
    "ent.": 800,
    "s of ": 801,
    "The co": 802,
    "over ": 803,
    "hon": 804,
    "The a": 805,
    "all ": 806,
    "uc": 807,
    "The l": 808,
    "change.": 809,
    "als ": 810,
    "s to ": 811,
    "ives.": 812,
    " the": 813,
    "The mon": 814,
    "justic": 815,
    "sust": 816,
    "sustain": 817,
    "ens ": 818,
    "plications.": 819,
    "prov": 820,
    "ecolog": 821,
    "ecological ": 822,
    "accel": 823,
    "acceler": 824,
    "consciousness.": 825,
    "sacred ": 826,
    "get": 827,
    "go": 828,
    "other": 829,
    "ok": 830,
    "well": 831,
    "way": 832,
    "oug": 833,
    "ough": 834,
    "ace": 835,
    "cho": 836,
    "teach": 837,
    "boo": 838,
    "book": 839,
    "uth": 840,
    "princi": 841,
    "ition": 842,
    "ty": 843,
    "movem": 844,
    "trad": 845,
    "exper": 846,
    "cept": 847,
    "press": 848,
    "att": 849,
    "asure": 850,
    "pain": 851,
    "high": 852,
    "ick": 853,
    "great": 854,
    "old": 855,
    "spir": 856,
    "cri": 857,
    "sup": 858,
    "affect": 859,
    "ift": 860,
    "cro": 861,
    "par": 862,
    "put": 863,
    "differ": 864,
    "equ": 865,
    "bet": 866,
    "az": 867,
    "e s": 868,
    "versity.": 869,
    "orit": 870,
    "our ": 871,
    "del": 872,
    "chno": 873,
    "chnolog": 874,
    "work ": 875,
    "ch ": 876,
    "ning.": 877,
    "ful ": 878,
    "knowle": 879,
    "knowledg": 880,
    "ood ": 881,
    "plays ": 882,
    "rain": 883,
    "math": 884,
    "mathem": 885,
    "mathemat": 886,
    "vol": 887,
    "faces.": 888,
    "ed.": 889,
    "les ": 890,
    "ach ": 891,
    "nature.": 892,
    "her ": 893,
    "ally.": 894,
    "ight ": 895,
    "mult": 896,
    "multi": 897,
    "les.": 898,
    "ds.": 899,
    "a.": 900,
    "dat": 901,
    "ator": 902,
    "ses.": 903,
    "ational ": 904,
    "She develops ": 905,
    "ends ": 906,
    "patter": 907,
    "pattern": 908,
    "The fort": 909,
    "The fortre": 910,
    "The fortress ": 911,
    "applications.": 912,
    "provides ": 913,
    "repres": 914,
    "economics.": 915,
    "id ": 916,
    "cir": 917,
    " theor": 918,
    "dim": 919,
    "dimens": 920,
    "ld": 921,
    "ink": 922,
    "after": 923,
    "fir": 924,
    "ive": 925,
    "most": 926,
    "ere": 927,
    "child": 928,
    "team": 929,
    "tow": 930,
    "class": 931,
    "stud": 932,
    "principle": 933,
    "mem": 934,
    "ber": 935,
    "proble": 936,
    "inst": 937,
    "posit": 938,
    "fr": 939,
    "tal": 940,
    "ial": 941,
    "effort": 942,
    "ash": 943,
    "ute": 944,
    "age": 945,
    "hop": 946,
    "ry": 947,
    "poss": 948,
    "clear": 949,
    "plain": 950,
    "sim": 951,
    "light": 952,
    "ep": 953,
    "ma": 954,
    "ific": 955,
    "cial": 956,
    "reg": 957,
    "phy": 958,
    "phys": 959,
    "spirit": 960,
    "ite": 961,
    "oud": 962,
    "paint": 963,
    "build": 964,
    "uct": 965,
    "support": 966,
    "perform": 967,
    "discover": 968,
    "sc": 969,
    "cu": 970,
    "appro": 971,
    "fl": 972,
    "transform": 973,
    "leav": 974,
    "cross": 975,
    "sever": 976,
    "cal": 977,
    "every": 978,
    "acro": 979,
    " to": 980,
    "uni": 981,
    "e and ": 982,
    "ici": 983,
    "ed in the ": 984,
    "we ": 985,
    "ate.": 986,
    "The re": 987,
    "engine": 988,
    "e is ": 989,
    "morning.": 990,
    "The g": 991,
    "flow": 992,
    "s h": 993,
    "from the ": 994,
    "The con": 995,
    "sk": 996,
    "roc": 997,
    "d the ": 998,
    "heal": 999,
    "ari": 1000,
    "ics ": 1001,
    "city.": 1002,
    "night": 1003,
    "che": 1004,
    " de": 1005,
    "wild": 1006,
    "ix": 1007,
    "try ": 1008,
    "old ": 1009,
    "day.": 1010,
    "its ": 1011,
    "archit": 1012,
    "architect": 1013,
    "to the ": 1014,
    "ond": 1015,
    "ors ": 1016,
    "ad ": 1017,
    "historical ": 1018,
    "ance.": 1019,
    "water": 1020,
    "ular ": 1021,
    "climate ": 1022,
    "land ": 1023,
    "ology ": 1024,
    "ric": 1025,
    "ship": 1026,
    "reflect": 1027,
    "estr": 1028,
    "tains ": 1029,
    "iat": 1030,
    "The me": 1031,
    "ution": 1032,
    "reveals ": 1033,
    " sp": 1034,
    "aly": 1035,
    "civ": 1036,
    "civil": 1037,
    "civiliz": 1038,
    "ms.": 1039,
    "wis": 1040,
    "wisdom": 1041,
    "water ": 1042,
    "represents ": 1043,
    "erg": 1044,
    "spac": 1045,
    " throug": 1046,
    "ural ": 1047,
    "rights.": 1048,
    "The hy": 1049,
    "justice.": 1050,
    "He studies consciousness ": 1051,
    "warming.": 1052,
    " sy": 1053,
    "ansit": 1054,
    "reatens ": 1055,
    "hedr": 1056,
    "not": 1057,
    "will": 1058,
    "my": 1059,
    "peop": 1060,
    "come": 1061,
    "day": 1062,
    "es": 1063,
    "need": 1064,
    "able": 1065,
    "pers": 1066,
    "person": 1067,
    "room": 1068,
    "meth": 1069,
    "method": 1070,
    "pol": 1071,
    "gover": 1072,
    "govern": 1073,
    "power": 1074,
    "quest": 1075,
    "quantit": 1076,
    "object": 1077,
    "product": 1078,
    "mat": 1079,
    "energ": 1080,
    "effect": 1081,
    "ence": 1082,
    "purpo": 1083,
    "mom": 1084,
    "tur": 1085,
    "hab": 1086,
    "habit": 1087,
    "experi": 1088,
    "vie": 1089,
    "view": 1090,
    "real": 1091,
    "hard": 1092,
    "ancient": 1093,
    "last": 1094,
    "fol": 1095,
    "follow": 1096,
    "import": 1097,
    "partic": 1098,
    "publ": 1099,
    "natur": 1100,
    "full": 1101,
    "bound": 1102,
    "oft": 1103,
    "sil": 1104,
    "appe": 1105,
    "ouch": 1106,
    "cog": 1107,
    "cogn": 1108,
    "entif": 1109,
    "read": 1110,
    "stre": 1111,
    "carry": 1112,
    "store": 1113,
    "erci": 1114,
    "rol": 1115,
    "arr": 1116,
    "sel": 1117,
    "dem": 1118,
    "enjoy": 1119,
    "spect": 1120,
    "den": 1121,
    "enter": 1122,
    "travel": 1123,
    "jour": 1124,
    "run": 1125,
    "rot": 1126,
    "win": 1127,
    "behav": 1128,
    "where": 1129,
    "far": 1130,
    "abo": 1131,
    "ps ": 1132,
    "day ": 1133,
    "clear ": 1134,
    "compu": 1135,
    "computer": 1136,
    "usic ": 1137,
    "change ": 1138,
    "for the ": 1139,
    " sun": 1140,
    "wa": 1141,
    "auth": 1142,
    "ine.": 1143,
    "my f": 1144,
    " of ": 1145,
    "in s": 1146,
    "anim": 1147,
    "ills.": 1148,
    "ocean ": 1149,
    "ts ": 1150,
    "th.": 1151,
    "displays ": 1152,
    "acts ": 1153,
    "ures.": 1154,
    "teaches ": 1155,
    "connects ": 1156,
    "ly in the ": 1157,
    "community ": 1158,
    "The tr": 1159,
    "wildlife.": 1160,
    "ures ": 1161,
    "land": 1162,
    "ir ": 1163,
    "ffe": 1164,
    "writ": 1165,
    "covered ": 1166,
    "en.": 1167,
    "architecture.": 1168,
    "ed with ": 1169,
    "alls ": 1170,
    "river": 1171,
    "valle": 1172,
    "wond": 1173,
    "har": 1174,
    "als.": 1175,
    "ades ": 1176,
    "across ": 1177,
    "beautiful ": 1178,
    "ings.": 1179,
    "ho": 1180,
    "mi": 1181,
    "itions.": 1182,
    "ty.": 1183,
    "grap": 1184,
    "creat": 1185,
    "different ": 1186,
    "et.": 1187,
    "cas": 1188,
    "offers ": 1189,
    "engineer": 1190,
    "el ": 1191,
    "multiple ": 1192,
    "now.": 1193,
    "The v": 1194,
    "is the ": 1195,
    "sych": 1196,
    "produc": 1197,
    "ves ": 1198,
    "s through": 1199,
    "med": 1200,
    "each ": 1201,
    "approach": 1202,
    "sym": 1203,
    "e re": 1204,
    "inno": 1205,
    "innov": 1206,
    "The monum": 1207,
    "The monument ": 1208,
    "The d": 1209,
    "He an": 1210,
    "He analy": 1211,
    "He analyz": 1212,
    "He analyzes ": 1213,
    "sustainable ": 1214,
    "ecosystems.": 1215,
    " in": 1216,
    "designs ": 1217,
    "atory ": 1218,
    "educ": 1219,
    "ins ": 1220,
    "uary ": 1221,
    "ness ": 1222,
    "creates ": 1223,
    "The man": 1224,
    "inform": 1225,
    "knowledge.": 1226,
    "The aqu": 1227,
    "practices.": 1228,
    "technolog": 1229,
    "The cit": 1230,
    "The citad": 1231,
    "affects ": 1232,
    "init": 1233,
    "initiat": 1234,
    "initiatives.": 1235,
    "phen": 1236,
    "phenom": 1237,
    "phenomen": 1238,
    "preserv": 1239,
    "ized ": 1240,
    "accelerates ": 1241,
    "io": 1242,
    " through ": 1243,
    "ility ": 1244,
    "water.": 1245,
    "movements.": 1246,
    "circ": 1247,
    "works.": 1248,
    "of consciousness.": 1249,
    "inte": 1250,
    "integr": 1251,
    "He investigates consciousness ": 1252,
    "emerg": 1253,
    "ment.": 1254,
    "The plan": 1255,
    "indic": 1256,
    "indicates ": 1257,
    "climate.": 1258,
    "yr": 1259,
    "theories.": 1260,
    "us ": 1261,
    "has tw": 1262,
    "finit": 1263,
    "edb": 1264,
    "ansition ": 1265,
    "dimensions.": 1266,
    " threatens ": 1267,
    "hedron ": 1268,
    "marked ": 1269,
    "but": 1270,
    "one": 1271,
    "ould": 1272,
    "make": 1273,
    "take": 1274,
    "goo": 1275,
    "some": 1276,
    "coul": 1277,
    "could": 1278,
    "look": 1279,
    "first": 1280,
    "want": 1281,
    "cause": 1282,
    "sa": 1283,
    "may": 1284,
    "ought": 1285,
    "fri": 1286,
    "gro": 1287,
    "coun": 1288,
    "try": 1289,
    "cit": 1290,
    "ice": 1291,
    "ue": 1292,
    "matter": 1293,
    "cond": 1294,
    "gre": 1295,
    "kind": 1296,
    "ateg": 1297,
    "pie": 1298,
    "top": 1299,
    "tom": 1300,
    "urfac": 1301,
    "ize": 1302,
    "ird": 1303,
    "rest": 1304,
    "bit": 1305,
    "mater": 1306,
    "material": 1307,
    "sub": 1308,
    "imp": 1309,
    "impact": 1310,
    "ason": 1311,
    "instant": 1312,
    "hour": 1313,
    "wee": 1314,
    "week": 1315,
    "turn": 1316,
    "memor": 1317,
    "mind": 1318,
    "brain": 1319,
    "impress": 1320,
    "certain": 1321,
    "vi": 1322,
    "complex": 1323,
    "heav": 1324,
    "wide": 1325,
    "itt": 1326,
    "late": 1327,
    "nex": 1328,
    "ary": 1329,
    "maj": 1330,
    "bas": 1331,
    "fund": 1332,
    "fundam": 1333,
    "fundament": 1334,
    "cif": 1335,
    "div": 1336,
    "intern": 1337,
    "spiritual": 1338,
    "theore": 1339,
    "wet": 1340,
    "lean": 1341,
    "empt": 1342,
    "open": 1343,
    "clo": 1344,
    "close": 1345,
    "moo": 1346,
    "quie": 1347,
    "loud": 1348,
    "bright": 1349,
    "answ": 1350,
    "appear": 1351,
    "smell": 1352,
    "touch": 1353,
    "watch": 1354,
    "obs": 1355,
    "erve": 1356,
    "def": 1357,
    "constr": 1358,
    "reach": 1359,
    "rise": 1360,
    "ai": 1361,
    "bring": 1362,
    "hold": 1363,
    "ply": 1364,
    "adop": 1365,
    "adopt": 1366,
    "regul": 1367,
    "pref": 1368,
    "demand": 1369,
    "quire": 1370,
    "pri": 1371,
    "contest": 1372,
    "let": 1373,
    "flu": 1374,
    "consist": 1375,
    "conver": 1376,
    "pass": 1377,
    "journe": 1378,
    "wal": 1379,
    "walk": 1380,
    "dro": 1381,
    "sw": 1382,
    "roll": 1383,
    "unch": 1384,
    "cut": 1385,
    "rip": 1386,
    "lock": 1387,
    "achie": 1388,
    "treat": 1389,
    "process": 1390,
    "fun": 1391,
    "duct": 1392,
    "peace": 1393,
    "alway": 1394,
    "never": 1395,
    "arely": 1396,
    "near": 1397,
    "less": 1398,
    "mu": 1399,
    "bo": 1400,
    "betwe": 1401,
    "fore": 1402,
    "dur": 1403,
    "possib": 1404,
    "precis": 1405,
    "ore.": 1406,
    "avorit": 1407,
    "avorite ": 1408,
    "ocean": 1409,
    "ocean.": 1410,
    "side.": 1411,
    "ded": 1412,
    "umm": 1413,
    "bak": 1414,
    "ake ": 1415,
    "The child": 1416,
    "The childre": 1417,
    "The children ": 1418,
    " serv": 1419,
    "authent": 1420,
    "color": 1421,
    "ading ": 1422,
    "shel": 1423,
    "shelter": 1424,
    "music ": 1425,
    "practices ": 1426,
    " tra": 1427,
    " the mountain": 1428,
    "love ": 1429,
    " time ": 1430,
    "ily ": 1431,
    "The muse": 1432,
    "The museum ": 1433,
    "own ": 1434,
    "bus": 1435,
    "busine": 1436,
    "year.": 1437,
    "ived ": 1438,
    "She teaches ": 1439,
    "local ": 1440,
    "ons.": 1441,
    "The st": 1442,
    " sky.": 1443,
    "nam": 1444,
    "libr": 1445,
    "thous": 1446,
    "s on ": 1447,
    "volun": 1448,
    "volunte": 1449,
    "beauty ": 1450,
    "with s": 1451,
    "ols.": 1452,
    " is ": 1453,
    "writes ": 1454,
    "are ": 1455,
    "la": 1456,
    "es to ": 1457,
    "gard": 1458,
    "got": 1459,
    "veget": 1460,
    "vegetab": 1461,
    "g ": 1462,
    "il ": 1463,
    "e of ": 1464,
    "gent": 1465,
    "gently ": 1466,
    "valley.": 1467,
    "de ": 1468,
    "arity ": 1469,
    "ele": 1470,
    "yard": 1471,
    "on.": 1472,
    "one ": 1473,
    "better": 1474,
    "collect": 1475,
    "ax": 1476,
    "honors ": 1477,
    "ist ": 1478,
    "s in the ": 1479,
    "ell ": 1480,
    "room ": 1481,
    "events.": 1482,
    "aries ": 1483,
    "out ": 1484,
    "t and ": 1485,
    "s in ": 1486,
    "ates the ": 1487,
    "and trad": 1488,
    "proper": 1489,
    "mel": 1490,
    "melt": 1491,
    "graph": 1492,
    "The ic": 1493,
    "is h": 1494,
    "The water": 1495,
    "casc": 1496,
    "cascades ": 1497,
    "liv": 1498,
    "ping ": 1499,
    "ses ": 1500,
    "mar": 1501,
    "everyth": 1502,
    "art.": 1503,
    "ed to": 1504,
    "m.": 1505,
    "The mo": 1506,
    "ines ": 1507,
    "engineering ": 1508,
    "ed a s": 1509,
    "sky.": 1510,
    "psych": 1511,
    "cell": 1512,
    "The cany": 1513,
    "The canyon ": 1514,
    "iel": 1515,
    "am.": 1516,
    "renew": 1517,
    "renewable ": 1518,
    "chestr": 1519,
    "nal ": 1520,
    "cultiv": 1521,
    "cultivates ": 1522,
    "bal": 1523,
    "aci": 1524,
    "The cath": 1525,
    "The cathedr": 1526,
    " skills.": 1527,
    "shed ": 1528,
    "ered ": 1529,
    "project": 1530,
    "ity in ": 1531,
    "orates ": 1532,
    "ience ": 1533,
    "opport": 1534,
    "opportun": 1535,
    "contains ": 1536,
    "coast": 1537,
    "celest": 1538,
    "celestial ": 1539,
    "The monast": 1540,
    "The monastery ": 1541,
    "The exp": 1542,
    "arb": 1543,
    "lab": 1544,
    "cies.": 1545,
    "The al": 1546,
    "gorit": 1547,
    "gorith": 1548,
    "eff": 1549,
    "effici": 1550,
    "diversity.": 1551,
    " sup": 1552,
    "pan": 1553,
    "net": 1554,
    "verse ": 1555,
    " provides ": 1556,
    "positive ": 1557,
    "The manus": 1558,
    "The manuscri": 1559,
    "dep": 1560,
    "manag": 1561,
    "complex ": 1562,
    "ices ": 1563,
    "threat": 1564,
    "efforts.": 1565,
    "The aqued": 1566,
    "The aqueduct": 1567,
    "He researches quantum ": 1568,
    "data ": 1569,
    "relation": 1570,
    "relationship": 1571,
    "relationships.": 1572,
    "a represents ": 1573,
    "behavi": 1574,
    "behavior": 1575,
    "ional ": 1576,
    "The est": 1577,
    "The estuary ": 1578,
    "above ": 1579,
    "interconnect": 1580,
    "neu": 1581,
    "neuro": 1582,
    " spac": 1583,
    "centur": 1584,
    "naturally.": 1585,
    "progr": 1586,
    "program": 1587,
    "programs.": 1588,
    "chem": 1589,
    "ual ": 1590,
    "The tem": 1591,
    "The temple ": 1592,
    "empl": 1593,
    "ox": 1594,
    "sis ": 1595,
    "monstr": 1596,
    "cultural ": 1597,
    "dy": 1598,
    "hum": 1599,
    "restor": 1600,
    "The pal": 1601,
    "The palace ": 1602,
    "myst": 1603,
    "mystery ": 1604,
    "The cur": 1605,
    "circular ": 1606,
    "economy ": 1607,
    "supports ": 1608,
    "ction ": 1609,
    "puts.": 1610,
    "gif": 1611,
    "gift ": 1612,
    "He studies consciousness and ": 1613,
    "ict": 1614,
    "measure": 1615,
    "quantities.": 1616,
    "remain": 1617,
    "principles.": 1618,
    "emergenc": 1619,
    "emergency ": 1620,
    "wonder ": 1621,
    "regener": 1622,
    "geome": 1623,
    "try.": 1624,
    "fines ": 1625,
    "productiv": 1626,
    "yram": 1627,
    "yramid ": 1628,
    "point.": 1629,
    "The hyper": 1630,
    "bol": 1631,
    " sym": 1632,
    "align": 1633,
    "consciousness theories.": 1634,
    "infinit": 1635,
    "glo": 1636,
    "glob": 1637,
    "He researches consciousness ": 1638,
    "edbac": 1639,
    "edback ": 1640,
    "growth ": 1641,
    "be ": 1642,
    "The planet": 1643,
    "The planetary ": 1644,
    "frame": 1645,
    "cosm": 1646,
    "have": 1647,
    "you": 1648,
    "say": 1649,
    "would": 1650,
    "there": 1651,
    "about": 1652,
    "who": 1653,
    "can": 1654,
    "time": 1655,
    "people": 1656,
    "good": 1657,
    "than": 1658,
    "then": 1659,
    "only": 1660,
    "back": 1661,
    "two": 1662,
    "even": 1663,
    "had": 1664,
    "did": 1665,
    "friend": 1666,
    "group": 1667,
    "world": 1668,
    "country": 1669,
    "state": 1670,
    "town": 1671,
    "place": 1672,
    "home": 1673,
    "hou": 1674,
    "chool": 1675,
    "truth": 1676,
    "idea": 1677,
    "theory": 1678,
    "means": 1679,
    "order": 1680,
    "law": 1681,
    "rule": 1682,
    "icy": 1683,
    "member": 1684,
    "question": 1685,
    "ance": 1686,
    "type": 1687,
    "piece": 1688,
    "sect": 1689,
    "bot": 1690,
    "fron": 1691,
    "mid": 1692,
    "shap": 1693,
    "total": 1694,
    "artic": 1695,
    "bir": 1696,
    "birth": 1697,
    "change": 1698,
    "movement": 1699,
    "force": 1700,
    "stren": 1701,
    "streng": 1702,
    "strength": 1703,
    "result": 1704,
    "sequ": 1705,
    "purpose": 1706,
    "aim": 1707,
    "clus": 1708,
    "yle": 1709,
    "minute": 1710,
    "epo": 1711,
    "season": 1712,
    "term": 1713,
    "whi": 1714,
    "while": 1715,
    "present": 1716,
    "fut": 1717,
    "tradition": 1718,
    "practice": 1719,
    "thought": 1720,
    "feel": 1721,
    "emot": 1722,
    "percept": 1723,
    "aware": 1724,
    "awarene": 1725,
    "attent": 1726,
    "attention": 1727,
    "interest": 1728,
    "desire": 1729,
    "wish": 1730,
    "hope": 1731,
    "dou": 1732,
    "doub": 1733,
    "doubt": 1734,
    "love": 1735,
    "hate": 1736,
    "dislike": 1737,
    "pleasure": 1738,
    "hap": 1739,
    "bad": 1740,
    "actual": 1741,
    "possi": 1742,
    "possible": 1743,
    "prob": 1744,
    "lik": 1745,
    "likely": 1746,
    "vious": 1747,
    "simple": 1748,
    "asy": 1749,
    "diffic": 1750,
    "difficult": 1751,
    "heavy": 1752,
    "strong": 1753,
    "long": 1754,
    "arrow": 1755,
    "deep": 1756,
    "allow": 1757,
    "lar": 1758,
    "uge": 1759,
    "youn": 1760,
    "early": 1761,
    "ief": 1762,
    "prim": 1763,
    "important": 1764,
    "ignific": 1765,
    "ignificant": 1766,
    "ess": 1767,
    "vit": 1768,
    "cru": 1769,
    "crit": 1770,
    "critical": 1771,
    "fundamental": 1772,
    "common": 1773,
    "aver": 1774,
    "special": 1775,
    "divid": 1776,
    "personal": 1777,
    "ivate": 1778,
    "public": 1779,
    "social": 1780,
    "ational": 1781,
    "local": 1782,
    "stract": 1783,
    "red": 1784,
    "brow": 1785,
    "orang": 1786,
    "pink": 1787,
    "hot": 1788,
    "clean": 1789,
    "mooth": 1790,
    "quiet": 1791,
    "speak": 1792,
    "mean": 1793,
    "show": 1794,
    "tast": 1795,
    "identif": 1796,
    "understand": 1797,
    "study": 1798,
    "explain": 1799,
    "descri": 1800,
    "pret": 1801,
    "construct": 1802,
    "spre": 1803,
    "stret": 1804,
    "stretch": 1805,
    "rai": 1806,
    "raise": 1807,
    "lift": 1808,
    "pick": 1809,
    "keep": 1810,
    "sav": 1811,
    "defend": 1812,
    "maintain": 1813,
    "hel": 1814,
    "assist": 1815,
    "emp": 1816,
    "exerci": 1817,
    "manage": 1818,
    "dire": 1819,
    "direct": 1820,
    "pare": 1821,
    "prefer": 1822,
    "ait": 1823,
    "adm": 1824,
    "ze": 1825,
    "det": 1826,
    "orn": 1827,
    "pose": 1828,
    "fight": 1829,
    "compet": 1830,
    "deb": 1831,
    "ree": 1832,
    "accept": 1833,
    "perm": 1834,
    "cour": 1835,
    "conv": 1836,
    "ince": 1837,
    "move": 1838,
    "insp": 1839,
    "inspire": 1840,
    "push": 1841,
    "prom": 1842,
    "prompt": 1843,
    "indu": 1844,
    "sse": 1845,
    "dif": 1846,
    "depart": 1847,
    "jum": 1848,
    "climb": 1849,
    "drop": 1850,
    "flo": 1851,
    "atch": 1852,
    "kn": 1853,
    "tap": 1854,
    "bre": 1855,
    "break": 1856,
    "tear": 1857,
    "spl": 1858,
    "split": 1859,
    "squ": 1860,
    "fast": 1861,
    "separ": 1862,
    "ins": 1863,
    "ert": 1864,
    "set": 1865,
    "lay": 1866,
    "spend": 1867,
    "gra": 1868,
    "ceed": 1869,
    "oper": 1870,
    "conduct": 1871,
    "sport": 1872,
    "still": 1873,
    "quick": 1874,
    "rap": 1875,
    "rapid": 1876,
    "slow": 1877,
    "grad": 1878,
    "always": 1879,
    "som": 1880,
    "etim": 1881,
    "hardly": 1882,
    "scar": 1883,
    "scarcel": 1884,
    "scarcely": 1885,
    "barely": 1886,
    "almost": 1887,
    "nearly": 1888,
    "quite": 1889,
    "rath": 1890,
    "rather": 1891,
    "very": 1892,
    "too": 1893,
    "more": 1894,
    "much": 1895,
    "several": 1896,
    "ither": 1897,
    "different": 1898,
    "equal": 1899,
    "here": 1900,
    "without": 1901,
    "along": 1902,
    "unt": 1903,
    "until": 1904,
    "exact": 1905,
    "mer": 1906,
    "whol": 1907,
    "air": 1908,
    "extre": 1909,
    "extrem": 1910,
    "ox ": 1911,
    "ells ": 1912,
    "seash": 1913,
    "by ": 1914,
    "went": 1915,
    " to the ": 1916,
    "store ": 1917,
    "to bu": 1918,
    "to buy ": 1919,
    "bread": 1920,
    "bread.": 1921,
    "weath": 1922,
    "blu": 1923,
    " sci": 1924,
    "university.": 1925,
    "y f": 1926,
    "caus": 1927,
    "The cat": 1928,
    "on the ": 1929,
    "ed the b": 1930,
    "irds ": 1931,
    "a new ": 1932,
    "lang": 1933,
    "langu": 1934,
    "tak": 1935,
    "dedic": 1936,
    "The": 1937,
    "They ": 1938,
    "ed to ": 1939,
    "ook ": 1940,
    "was s": 1941,
    " that ": 1942,
    " to change ": 1943,
    "delici": 1944,
    "delicious ": 1945,
    "chocol": 1946,
    "chocolate ": 1947,
    "way ": 1948,
    "communic": 1949,
    "He enjoy": 1950,
    "morning ": 1951,
    "befor": 1952,
    "before ": 1953,
    "work.": 1954,
    "authentic ": 1955,
    "I ne": 1956,
    "e was ": 1957,
    "entertain": 1958,
    "works ": 1959,
    "oftwar": 1960,
    "oftware ": 1961,
    "compan": 1962,
    "company.": 1963,
    "my favorite ": 1964,
    "verage ": 1965,
    "The gard": 1966,
    "The garden ": 1967,
    "full of ": 1968,
    "colorful ": 1969,
    "ers in s": 1970,
    "imag": 1971,
    "imagin": 1972,
    "adopted a ": 1973,
    "upp": 1974,
    "uppy ": 1975,
    "animal ": 1976,
    "The concer": 1977,
    "The concert ": 1978,
    "amaz": 1979,
    "great ": 1980,
    "ar ": 1981,
    "ve his ": 1982,
    "The ocean ": 1983,
    "wav": 1984,
    "ed ag": 1985,
    "ed again": 1986,
    " the roc": 1987,
    " the rock": 1988,
    " travel": 1989,
    "aroun": 1990,
    "around the ": 1991,
    "eda": 1992,
    "eday.": 1993,
    "The sun": 1994,
    "important ": 1995,
    "good ": 1996,
    "weekend": 1997,
    "vari": 1998,
    "cultures.": 1999,
    "start": 2000,
    "ed his ": 2001,
    "business ": 2002,
    "last ": 2003,
    "last year.": 2004,
    "The rain": 2005,
    "ped ": 2006,
    "just ": 2007,
    "just as ": 2008,
    "arrived ": 2009,
    "The bri": 2010,
    "The bridg": 2011,
    "The bridge ": 2012,
    "of the city.": 2013,
    "cook": 2014,
    "cip": 2015,
    "on S": 2016,
    "on Sund": 2017,
    "ay ": 2018,
    "afterno": 2019,
    "first ": 2020,
    "place ": 2021,
    "The libr": 2022,
    "The library ": 2023,
    "volunteers ": 2024,
    "volunteers at the ": 2025,
    "center ": 2026,
    "ain de": 2027,
    "I appreciate the beauty ": 2028,
    "nature ": 2029,
    "ting ": 2030,
    "cap": 2031,
    "landsc": 2032,
    "landscap": 2033,
    "perf": 2034,
    "perfect": 2035,
    "tools.": 2036,
    "The coffe": 2037,
    "shop": 2038,
    "crow": 2039,
    "She writes ": 2040,
    "poe": 2041,
    "poetry ": 2042,
    "poetry in ": 2043,
    "time.": 2044,
    "now ": 2045,
    "winter": 2046,
    "an old ": 2047,
    "y faces.": 2048,
    "garden.": 2049,
    "list": 2050,
    "listen": 2051,
    "listening": 2052,
    "listening to ": 2053,
    "classical ": 2054,
    "ile ": 2055,
    "is know": 2056,
    "is known ": 2057,
    "is known for ": 2058,
    "is known for its ": 2059,
    " so": 2060,
    "The piz": 2061,
    "The pizz": 2062,
    "The pizza ": 2063,
    "ed with fresh ": 2064,
    "vegetables ": 2065,
    "The do": 2066,
    "painted the ": 2067,
    "walls ": 2068,
    "The river": 2069,
    "gently through": 2070,
    " the valley.": 2071,
    "I learned to ": 2072,
    "when ": 2073,
    "He studies har": 2074,
    "He studies hard ": 2075,
    "goals.": 2076,
    "leaves ": 2077,
    "across the ": 2078,
    "yard.": 2079,
    "coffe": 2080,
    "discovered a ": 2081,
    "hid": 2082,
    "hidden": 2083,
    "forest": 2084,
    "forest.": 2085,
    "rang": 2086,
    "ire ": 2087,
    "collects ": 2088,
    "vint": 2089,
    "vintage ": 2090,
    "as a ": 2091,
    "beach ": 2092,
    "relax": 2093,
    "during ": 2094,
    "ed new": 2095,
    "oes ": 2096,
    "daily ": 2097,
    "The stor": 2098,
    "had ": 2099,
    "unex": 2100,
    "unexp": 2101,
    "unexpect": 2102,
    "unexpected ": 2103,
    " the night": 2104,
    "dec": 2105,
    "historical events.": 2106,
    "ing d": 2107,
    "ocum": 2108,
    "ocument": 2109,
    "out nature.": 2110,
    "on a ": 2111,
    "computer.": 2112,
    "plant": 2113,
    "The th": 2114,
    "under ": 2115,
    "cele": 2116,
    "celebr": 2117,
    "and traditions.": 2118,
    "grand": 2119,
    "ther.": 2120,
    "creative ": 2121,
    "public ": 2122,
    "The ice ": 2123,
    "heat": 2124,
    "The fore": 2125,
    "The forest ": 2126,
    "ome to ": 2127,
    "many ": 2128,
    "fall ": 2129,
    "to s": 2130,
    " thre": 2131,
    " three ": 2132,
    "chew": 2133,
    "s a s": 2134,
    "uccess": 2135,
    "uccessful ": 2136,
    " en": 2137,
    "people ": 2138,
    "others.": 2139,
    "everything ": 2140,
    "ed a beautiful ": 2141,
    "team ": 2142,
    "ed toge": 2143,
    "mountains.": 2144,
    "free ": 2145,
    "miss": 2146,
    "urs": 2147,
    "She practices ": 2148,
    "og": 2149,
    "valuable ": 2150,
    "experience.": 2151,
    "beautifully.": 2152,
    "mag": 2153,
    "s for ": 2154,
    "clear night": 2155,
    "convers": 2156,
    "ed engineering ": 2157,
    "a pre": 2158,
    "too ": 2159,
    "imm": 2160,
    "rescu": 2161,
    "right ": 2162,
    " sunri": 2163,
    " sunrise.": 2164,
    "illage ": 2165,
    "erence ": 2166,
    "iver": 2167,
    " time.": 2168,
    "I enjoy the ": 2169,
    "peace ": 2170,
    "est ": 2171,
    "cloud": 2172,
    "soci": 2173,
    "ology.": 2174,
    "excell": 2175,
    "hoo": 2176,
    "d.": 2177,
    "on his ": 2178,
    "breat": 2179,
    "views.": 2180,
    "mentors ": 2181,
    "fiel": 2182,
    "ages.": 2183,
    "physical ": 2184,
    "th s": 2185,
    " team.": 2186,
    "rain.": 2187,
    "ath ": 2188,
    "s through the ": 2189,
    "ed my ": 2190,
    "renewable energ": 2191,
    "renewable energy ": 2192,
    "solut": 2193,
    "solutions.": 2194,
    "sser": 2195,
    "The ligh": 2196,
    "The lighthous": 2197,
    "guides ": 2198,
    "produces ": 2199,
    "organic ": 2200,
    "ud": 2201,
    "dance ": 2202,
    "rout": 2203,
    "craf": 2204,
    "perspect": 2205,
    "perspectives.": 2206,
    " the mountain.": 2207,
    "center.": 2208,
    "frost ": 2209,
    "She f": 2210,
    "She found": 2211,
    "prof": 2212,
    "oriz": 2213,
    "ed with": 2214,
    "care": 2215,
    "orchestr": 2216,
    "symph": 2217,
    "symphon": 2218,
    "maintains ": 2219,
    "geolog": 2220,
    "She cultivates ": 2221,
    "The gl": 2222,
    "The glaci": 2223,
    "better ": 2224,
    "contr": 2225,
    "act ": 2226,
    "rolled ": 2227,
    "mental ": 2228,
    "protection.": 2229,
    "The cathedral ": 2230,
    "feat": 2231,
    "features ": 2232,
    "learning ": 2233,
    "al re": 2234,
    "s with ": 2235,
    "marine ": 2236,
    "eries.": 2237,
    "The mead": 2238,
    "The meadow": 2239,
    "projects ": 2240,
    "revol": 2241,
    "revolution": 2242,
    "qual": 2243,
    "quality ": 2244,
    "The monument comm": 2245,
    "The monument commem": 2246,
    "The monument commemorates ": 2247,
    "experim": 2248,
    "experiments ": 2249,
    " tech": 2250,
    " techn": 2251,
    " techni": 2252,
    " techniqu": 2253,
    " techniques.": 2254,
    "pe ": 2255,
    "distant ": 2256,
    "gal": 2257,
    "ience through ": 2258,
    "sea.": 2259,
    "brings ": 2260,
    "cial ": 2261,
    "justice re": 2262,
    "justice reform": 2263,
    "The arch": 2264,
    "The archip": 2265,
    "The archipel": 2266,
    "The archipelag": 2267,
    "consists of ": 2268,
    "rends.": 2269,
    "s the ": 2270,
    "rock ": 2271,
    "I em": 2272,
    "I embr": 2273,
    "I embrace ": 2274,
    "growth.": 2275,
    "explo": 2276,
    "pursu": 2277,
    "cience.": 2278,
    "coastl": 2279,
    "She designs ": 2280,
    "er-": 2281,
    "web": 2282,
    "The obs": 2283,
    "The observ": 2284,
    "The observatory ": 2285,
    "acks ": 2286,
    "opens ": 2287,
    "entific ": 2288,
    "building ": 2289,
    "imple ": 2290,
    "moments.": 2291,
    "fish": 2292,
    "izes ": 2293,
    "artific": 2294,
    "artificial ": 2295,
    "intell": 2296,
    "intellig": 2297,
    "The ru": 2298,
    "The ruins ": 2299,
    "reveal ": 2300,
    "ancient civiliz": 2301,
    "ancient civilizations.": 2302,
    "international ": 2303,
    "protects ": 2304,
    "resil": 2305,
    "The algorith": 2306,
    "The algorithm ": 2307,
    "processing ": 2308,
    "problems.": 2309,
    "The ecosystem": 2310,
    "ends on ": 2311,
    "bio": 2312,
    "The res": 2313,
    " suppl": 2314,
    "labor": 2315,
    "educational ": 2316,
    "diverse ": 2317,
    "data.": 2318,
    "The fortress protect": 2319,
    "The manuscrip": 2320,
    "The manuscript ": 2321,
    "information.": 2322,
    "He designs ": 2323,
    "She facilitates community ": 2324,
    "advanc": 2325,
    "advances ": 2326,
    "ical knowledge.": 2327,
    "os": 2328,
    "plains.": 2329,
    "es complex ": 2330,
    "ely.": 2331,
    "ensu": 2332,
    "ensus ": 2333,
    "demo": 2334,
    "secur": 2335,
    "ports ": 2336,
    " efforts.": 2337,
    "The mig": 2338,
    "The migr": 2339,
    "The migration ": 2340,
    "patterns ": 2341,
    "generations.": 2342,
    "The del": 2343,
    "The delt": 2344,
    "The delta ": 2345,
    "The const": 2346,
    "between ": 2347,
    "ancient knowledge.": 2348,
    "technology.": 2349,
    "The citadel": 2350,
    "The watershed ": 2351,
    "confl": 2352,
    "olution": 2353,
    "patterns.": 2354,
    "ences ": 2355,
    "tem": 2356,
    "temper": 2357,
    "temperat": 2358,
    "health ": 2359,
    "of nature.": 2360,
    "The theore": 2361,
    "The theorem ": 2362,
    "mathematical ": 2363,
    "reflection.": 2364,
    "onom": 2365,
    "spaces.": 2366,
    "acter": 2367,
    "learning.": 2368,
    "technology ": 2369,
    "ann": 2370,
    "equation ": 2371,
    "phenomena.": 2372,
    "The monastery preserv": 2373,
    "ancient t": 2374,
    "cul": 2375,
    "stood ": 2376,
    "The reef": 2377,
    "mathematics.": 2378,
    "compass": 2379,
    "centuries.": 2380,
    "The bas": 2381,
    "chemical ": 2382,
    "curio": 2383,
    "curiosit": 2384,
    "The temple ex": 2385,
    "The temple exempl": 2386,
    "The temple exemplif": 2387,
    "The temple exemplifies ": 2388,
    "mast": 2389,
    "master": 2390,
    "mastery.": 2391,
    "carb": 2392,
    "pothe": 2393,
    "diversit": 2394,
    "diversity ": 2395,
    "monstrates ": 2396,
    "The wet": 2397,
    "The wetland ": 2398,
    "water naturally.": 2399,
    "cross-": 2400,
    "The par": 2401,
    "dig": 2402,
    " shift": 2403,
    "s our ": 2404,
    "The citadel ": 2405,
    "ical t": 2406,
    "dynam": 2407,
    "She develops tra": 2408,
    "She develops traum": 2409,
    "ility through ": 2410,
    "spiritual ": 2411,
    "stores ": 2412,
    "The coeffici": 2413,
    "behavior.": 2414,
    "I believe hop": 2415,
    "The fr": 2416,
    "I appreciate the mystery ": 2417,
    "of ex": 2418,
    "of exist": 2419,
    "of existence.": 2420,
    "agric": 2421,
    "agricult": 2422,
    "The curren": 2423,
    "The current ": 2424,
    "mech": 2425,
    "mechan": 2426,
    "mechanis": 2427,
    "mechanisms.": 2428,
    "managem": 2429,
    "light ": 2430,
    "ic s": 2431,
    "particip": 2432,
    "participatory ": 2433,
    "I seek": 2434,
    "host": 2435,
    "hosted ": 2436,
    "propert": 2437,
    "properties.": 2438,
    "networks.": 2439,
    "outputs.": 2440,
    "I appreciate the gift ": 2441,
    "age.": 2442,
    " trans": 2443,
    " transform": 2444,
    "rate ": 2445,
    "rate of ": 2446,
    "rate of change.": 2447,
    "strateg": 2448,
    "strategic ": 2449,
    "ene ": 2450,
    "apy ": 2451,
    "The up": 2452,
    "The upwell": 2453,
    "The upwelling ": 2454,
    "tri": 2455,
    "urface.": 2456,
    "ability ": 2457,
    "The sh": 2458,
    "The shr": 2459,
    "The shrine ": 2460,
    "attr": 2461,
    "attracts ": 2462,
    "ain ": 2463,
    "ant remain": 2464,
    "ant remains ": 2465,
    "ant remains un": 2466,
    "ant remains unchang": 2467,
    "command": 2468,
    "es fresh ": 2469,
    "ector ": 2470,
    "nit": 2471,
    "He studies quantum ": 2472,
    "icro": 2473,
    "icrobi": 2474,
    "icrobiome ": 2475,
    "beg": 2476,
    "begins ": 2477,
    "The tow": 2478,
    "The tower ": 2479,
    "medic": 2480,
    "medicine ": 2481,
    "pecif": 2482,
    "pecific ": 2483,
    "I value pres": 2484,
    "I value presence ": 2485,
    "I value presence over ": 2486,
    "food ": 2487,
    "The lim": 2488,
    "value.": 2489,
    "The expon": 2490,
    "regenerative ": 2491,
    "I seek har": 2492,
    "I seek harmon": 2493,
    "I seek harmony ": 2494,
    "sacred geome": 2495,
    " scal": 2496,
    "es the ": 2497,
    "oused ": 2498,
    "R ": 2499,
    "wisdom ": 2500,
    "The per": 2501,
    "The perma": 2502,
    "ed m": 2503,
    "power.": 2504,
    "The pyramid ": 2505,
    "The carb": 2506,
    "The carbon ": 2507,
    "silence ": 2508,
    "rog": 2509,
    "en cycle ": 2510,
    "connected ": 2511,
    "yg": 2512,
    "orus ": 2513,
    "lim": 2514,
    "productivity.": 2515,
    "has two ": 2516,
    "I believe love ": 2517,
    " symbol": 2518,
    " symbolized ": 2519,
    "points.": 2520,
    "I value the ": 2521,
    "parad": 2522,
    "He investigates quantum ": 2523,
    "circle ": 2524,
    "infinite ": 2525,
    "symme": 2526,
    "earth": 2527,
    " system": 2528,
    " systems.": 2529,
    "She promotes sol": 2530,
    "She promotes solid": 2531,
    "She promotes solidarity ": 2532,
    "The tri": 2533,
    "The bio": 2534,
    "I believe wonder ": 2535,
    "univer": 2536,
    "spher": 2537,
    "sphere ": 2538,
    "e through ": 2539,
    "ed cogn": 2540,
    "ed cognition": 2541,
    "The tip": 2542,
    "The tipping ": 2543,
    "threaten ": 2544,
    "stab": 2545,
    "stabilit": 2546,
    "stability.": 2547,
    "ene": 2548,
    "heart.": 2549,
    "He investigates pan": 2550,
    "He investigates panpsych": 2551,
    " theories.": 2552,
    "feedback ": 2553,
    "feedback accelerates ": 2554,
    "less ": 2555,
    "integrated ": 2556,
    " theory.": 2557,
    "bed": 2558,
    "bedo ": 2559,
    "She coordinates tr": 2560,
    "ansition initiatives.": 2561,
    "into ": 2562,
    "He develops consciousness ": 2563,
    "governance.": 2564,
    "reality.": 2565,
    "He researches quantum bi": 2566,
    "He researches quantum biology ": 2567,
    "biore": 2568,
    "bioreg": 2569,
    "bioregional ": 2570,
    "economies.": 2571,
    "hedron has tw": 2572,
    "ation threatens ": 2573,
    "The o": 2574,
    "marked sacred ": 2575,
    "She advocates for ecological ": 2576,
    "igg": 2577,
    "earth ": 2578,
    "global ": 2579,
    "space ": 2580,
    "The te": 2581,
    "civilization.": 2582,
    "eter": 2583,
    "eternal ": 2584,
    "space.": 2585,
    "being ": 2586,
    "The over": 2587,
    "The oversh": 2588,
    "The overshoo": 2589,
    "coll": 2590,
    "collap": 2591,
    "hy": 2592,
    "emergency demand": 2593,
    "emergency demands ": 2594,
    "bends ": 2595,
    " space.": 2596,
    "He investigates consciousness as ": 2597,
    "ism ": 2598,
    "defines ": 2599,
    "consciousness frame": 2600,
    "consciousness frameworks.": 2601,
    "calls ": 2602,
    "calls u": 2603,
    "awak": 2604,
    "within ": 2605,
    "cosmic ": 2606
  }
}